unsigned char model_tflite[] = {
  0x1c, 0x00, 0x00, 0x00, 0x54, 0x46, 0x4c, 0x33, 0x14, 0x00, 0x20, 0x00,
  0x1c, 0x00, 0x18, 0x00, 0x14, 0x00, 0x10, 0x00, 0x0c, 0x00, 0x00, 0x00,
  0x08, 0x00, 0x04, 0x00, 0x14, 0x00, 0x00, 0x00, 0x1c, 0x00, 0x00, 0x00,
  0x98, 0x00, 0x00, 0x00, 0xf0, 0x00, 0x00, 0x00, 0x9c, 0x0a, 0x00, 0x00,
  0xac, 0x0a, 0x00, 0x00, 0x60, 0x10, 0x00, 0x00, 0x03, 0x00, 0x00, 0x00,
  0x01, 0x00, 0x00, 0x00, 0x10, 0x00, 0x00, 0x00, 0x00, 0x00, 0x0a, 0x00,
  0x10, 0x00, 0x0c, 0x00, 0x08, 0x00, 0x04, 0x00, 0x0a, 0x00, 0x00, 0x00,
  0x0c, 0x00, 0x00, 0x00, 0x1c, 0x00, 0x00, 0x00, 0x3c, 0x00, 0x00, 0x00,
  0x0f, 0x00, 0x00, 0x00, 0x73, 0x65, 0x72, 0x76, 0x69, 0x6e, 0x67, 0x5f,
  0x64, 0x65, 0x66, 0x61, 0x75, 0x6c, 0x74, 0x00, 0x01, 0x00, 0x00, 0x00,
  0x04, 0x00, 0x00, 0x00, 0x90, 0xff, 0xff, 0xff, 0x0a, 0x00, 0x00, 0x00,
  0x04, 0x00, 0x00, 0x00, 0x08, 0x00, 0x00, 0x00, 0x6f, 0x75, 0x74, 0x70,
  0x75, 0x74, 0x5f, 0x30, 0x00, 0x00, 0x00, 0x00, 0x01, 0x00, 0x00, 0x00,
  0x04, 0x00, 0x00, 0x00, 0x4a, 0xf5, 0xff, 0xff, 0x04, 0x00, 0x00, 0x00,
  0x0c, 0x00, 0x00, 0x00, 0x6b, 0x65, 0x72, 0x61, 0x73, 0x5f, 0x74, 0x65,
  0x6e, 0x73, 0x6f, 0x72, 0x00, 0x00, 0x00, 0x00, 0x02, 0x00, 0x00, 0x00,
  0x34, 0x00, 0x00, 0x00, 0x04, 0x00, 0x00, 0x00, 0xdc, 0xff, 0xff, 0xff,
  0x0d, 0x00, 0x00, 0x00, 0x04, 0x00, 0x00, 0x00, 0x13, 0x00, 0x00, 0x00,
  0x43, 0x4f, 0x4e, 0x56, 0x45, 0x52, 0x53, 0x49, 0x4f, 0x4e, 0x5f, 0x4d,
  0x45, 0x54, 0x41, 0x44, 0x41, 0x54, 0x41, 0x00, 0x08, 0x00, 0x0c, 0x00,
  0x08, 0x00, 0x04, 0x00, 0x08, 0x00, 0x00, 0x00, 0x0c, 0x00, 0x00, 0x00,
  0x04, 0x00, 0x00, 0x00, 0x13, 0x00, 0x00, 0x00, 0x6d, 0x69, 0x6e, 0x5f,
  0x72, 0x75, 0x6e, 0x74, 0x69, 0x6d, 0x65, 0x5f, 0x76, 0x65, 0x72, 0x73,
  0x69, 0x6f, 0x6e, 0x00, 0x0e, 0x00, 0x00, 0x00, 0xa8, 0x09, 0x00, 0x00,
  0xa0, 0x09, 0x00, 0x00, 0xd0, 0x08, 0x00, 0x00, 0xc0, 0x04, 0x00, 0x00,
  0xa4, 0x04, 0x00, 0x00, 0x54, 0x04, 0x00, 0x00, 0x04, 0x04, 0x00, 0x00,
  0xb4, 0x00, 0x00, 0x00, 0xac, 0x00, 0x00, 0x00, 0xa4, 0x00, 0x00, 0x00,
  0x9c, 0x00, 0x00, 0x00, 0x94, 0x00, 0x00, 0x00, 0x74, 0x00, 0x00, 0x00,
  0x04, 0x00, 0x00, 0x00, 0xfe, 0xf5, 0xff, 0xff, 0x04, 0x00, 0x00, 0x00,
  0x60, 0x00, 0x00, 0x00, 0x0c, 0x00, 0x00, 0x00, 0x08, 0x00, 0x0e, 0x00,
  0x08, 0x00, 0x04, 0x00, 0x08, 0x00, 0x00, 0x00, 0x10, 0x00, 0x00, 0x00,
  0x28, 0x00, 0x00, 0x00, 0x00, 0x00, 0x06, 0x00, 0x08, 0x00, 0x04, 0x00,
  0x06, 0x00, 0x00, 0x00, 0x04, 0x00, 0x00, 0x00, 0x01, 0x00, 0x00, 0x00,
  0xea, 0x03, 0x00, 0x00, 0x0c, 0x00, 0x18, 0x00, 0x14, 0x00, 0x10, 0x00,
  0x0c, 0x00, 0x04, 0x00, 0x0c, 0x00, 0x00, 0x00, 0x09, 0x87, 0xf4, 0xed,
  0xa0, 0xaf, 0xa9, 0x17, 0x02, 0x00, 0x00, 0x00, 0x02, 0x00, 0x00, 0x00,
  0x04, 0x00, 0x00, 0x00, 0x06, 0x00, 0x00, 0x00, 0x32, 0x2e, 0x31, 0x39,
  0x2e, 0x30, 0x00, 0x00, 0x6a, 0xf6, 0xff, 0xff, 0x04, 0x00, 0x00, 0x00,
  0x10, 0x00, 0x00, 0x00, 0x31, 0x2e, 0x35, 0x2e, 0x30, 0x00, 0x00, 0x00,
  0x00, 0x00, 0x00, 0x00, 0x00, 0x00, 0x00, 0x00, 0x80, 0xf1, 0xff, 0xff,
  0x84, 0xf1, 0xff, 0xff, 0x88, 0xf1, 0xff, 0xff, 0x8c, 0xf1, 0xff, 0xff,
  0x96, 0xf6, 0xff, 0xff, 0x04, 0x00, 0x00, 0x00, 0x40, 0x03, 0x00, 0x00,
  0x40, 0x32, 0x4f, 0x3e, 0x5a, 0x54, 0xb2, 0xba, 0xba, 0xd9, 0x2a, 0x3e,
  0x6b, 0x52, 0xce, 0xbd, 0x59, 0x0e, 0x51, 0x3d, 0xc4, 0xc1, 0x9e, 0x3e,
  0x7f, 0xf6, 0xed, 0x3d, 0x9f, 0x5f, 0xc0, 0xbe, 0x41, 0x38, 0xc4, 0xbc,
  0xb9, 0x35, 0xdd, 0x3e, 0x51, 0x13, 0x0c, 0xbf, 0x14, 0xdd, 0x6f, 0xbe,
  0x7d, 0x47, 0x79, 0x3d, 0x6b, 0x80, 0xc6, 0x3e, 0x75, 0x4b, 0x63, 0x3e,
  0x27, 0x73, 0xa6, 0x3e, 0x4e, 0x3d, 0xae, 0xbe, 0x57, 0xe3, 0xdd, 0x3e,
  0xcb, 0x84, 0x99, 0x3e, 0x70, 0xb8, 0x71, 0x3e, 0xa1, 0x4f, 0xe8, 0xbe,
  0x15, 0x90, 0x90, 0x3e, 0xbd, 0xf5, 0x81, 0x3e, 0xfe, 0x6f, 0x92, 0x3e,
  0xf9, 0x7a, 0x08, 0x3f, 0x85, 0xe2, 0xc1, 0x3d, 0xf8, 0x84, 0x34, 0xbe,
  0x7d, 0x83, 0x68, 0x3e, 0xab, 0xd6, 0xc4, 0xbe, 0x96, 0xf1, 0x38, 0xbe,
  0x6d, 0xc4, 0xf1, 0xbe, 0x16, 0xe7, 0x1d, 0xbe, 0xab, 0x15, 0x55, 0xbd,
  0x0d, 0x39, 0xf8, 0x3e, 0xe5, 0x3f, 0xfc, 0xbd, 0xb4, 0x88, 0x0a, 0xbf,
  0xa6, 0x62, 0xf4, 0x3e, 0xc2, 0x7b, 0x05, 0xbf, 0x89, 0x52, 0x7a, 0xbe,
  0x2b, 0x29, 0xb6, 0xbe, 0x41, 0x78, 0x56, 0xbe, 0x6e, 0x21, 0xaa, 0x3e,
  0xdf, 0xd6, 0x8c, 0xbe, 0xa8, 0x38, 0xa2, 0x3e, 0x9b, 0xaf, 0xa5, 0x3e,
  0xdc, 0x3a, 0x82, 0x3d, 0xa3, 0x53, 0x76, 0xbe, 0x87, 0x3c, 0xd8, 0x3c,
  0x78, 0x2e, 0xd2, 0xbe, 0x2e, 0x74, 0x97, 0xbc, 0x85, 0xc9, 0xec, 0xbe,
  0x20, 0x8f, 0x45, 0x3e, 0x01, 0xfd, 0x09, 0xbf, 0x80, 0x7e, 0x5c, 0xbc,
  0x32, 0x05, 0xcf, 0xbe, 0xe3, 0xda, 0x2f, 0x3e, 0x3a, 0x43, 0x13, 0x3f,
  0x26, 0x7d, 0xfe, 0x3d, 0xd1, 0x39, 0x07, 0x3f, 0xff, 0x41, 0xdc, 0x3e,
  0x09, 0xff, 0x6a, 0xbe, 0xdc, 0x8b, 0x48, 0xbf, 0xe6, 0xca, 0x7a, 0x3b,
  0x55, 0xea, 0x91, 0xbe, 0x41, 0xcc, 0xe1, 0xbd, 0x49, 0xc0, 0x54, 0x3e,
  0xe1, 0x1b, 0x75, 0x3e, 0x31, 0x66, 0xd6, 0x3e, 0x8c, 0xaf, 0x59, 0x3e,
  0xfe, 0x93, 0x82, 0x3e, 0x43, 0x9c, 0x7b, 0x3d, 0x6c, 0x73, 0xa1, 0x3e,
  0x25, 0xfa, 0x18, 0xbc, 0xce, 0x03, 0xe0, 0x3e, 0x61, 0xe4, 0xd5, 0x3e,
  0x2e, 0x22, 0x03, 0xbe, 0xdf, 0xbe, 0x13, 0x3f, 0x4e, 0x9e, 0x5b, 0xbd,
  0x2a, 0xfa, 0xfe, 0x3d, 0xfe, 0x00, 0xb3, 0xbe, 0xe3, 0x3b, 0x8a, 0xbe,
  0xb4, 0xee, 0x60, 0x3e, 0xbe, 0xa7, 0x5f, 0xbe, 0xe6, 0xe1, 0x74, 0x3d,
  0xe9, 0x24, 0x9d, 0x3e, 0x66, 0x8f, 0x03, 0xbe, 0xe1, 0x4e, 0x92, 0x3e,
  0x4c, 0x29, 0x1d, 0xbf, 0x5b, 0x5a, 0x1d, 0x3f, 0xa7, 0x76, 0x08, 0x3f,
  0x71, 0x96, 0xc7, 0xbb, 0xc4, 0x4d, 0x90, 0x3e, 0x8e, 0x1f, 0xc7, 0xbd,
  0x38, 0x45, 0x4b, 0xbd, 0x8d, 0x5f, 0x6a, 0xbe, 0x9b, 0x11, 0xfa, 0x3e,
  0xb3, 0x5f, 0xc1, 0xbe, 0xf2, 0x92, 0x57, 0xbe, 0x9b, 0xa7, 0xab, 0xbe,
  0xe9, 0x1e, 0xd9, 0x3e, 0x55, 0x58, 0x42, 0x3e, 0xf5, 0xcd, 0x88, 0xbe,
  0xab, 0xd8, 0x54, 0xbe, 0x2b, 0xe0, 0x3d, 0xbd, 0x80, 0xd9, 0x7a, 0x3d,
  0x6b, 0x81, 0xd0, 0xbe, 0x28, 0x0a, 0x98, 0xbe, 0x5a, 0x4a, 0xfb, 0x3e,
  0xb3, 0xe3, 0xbf, 0xbe, 0x10, 0xe9, 0x0c, 0xbd, 0x1d, 0xb8, 0x09, 0x3f,
  0x81, 0x29, 0x28, 0x3e, 0xaf, 0xde, 0xad, 0xbe, 0xf9, 0x35, 0x26, 0xbf,
  0x78, 0xe5, 0xcd, 0xbd, 0x14, 0xa5, 0xfa, 0x3d, 0xf8, 0xb1, 0x36, 0xbf,
  0x00, 0x30, 0x18, 0xbf, 0xc6, 0x35, 0x91, 0x3b, 0xb4, 0x0e, 0x9b, 0xbe,
  0xa3, 0x05, 0x2f, 0x3f, 0x13, 0x4a, 0xc2, 0xbe, 0x68, 0xbd, 0xed, 0x3d,
  0x6d, 0x90, 0xb3, 0x3e, 0x66, 0xe1, 0xc6, 0x3d, 0x42, 0x40, 0xff, 0x3d,
  0xcc, 0x10, 0xd0, 0x3c, 0xbc, 0x96, 0xf8, 0xbd, 0xcf, 0x8b, 0x86, 0x3e,
  0x7c, 0x23, 0xc0, 0xbe, 0xae, 0x92, 0x7a, 0x3e, 0xcf, 0x17, 0xc3, 0x3e,
  0xec, 0xfd, 0x8f, 0xbe, 0x2f, 0x23, 0x61, 0xbe, 0x48, 0x2c, 0x30, 0x3e,
  0x81, 0x67, 0x0b, 0xbf, 0x48, 0x7e, 0x04, 0x3e, 0x05, 0xee, 0x20, 0x3e,
  0xf9, 0xb9, 0xf4, 0xbd, 0x95, 0x57, 0x9f, 0x3e, 0xff, 0xb5, 0x0b, 0xbf,
  0xe2, 0xf3, 0x0c, 0x3e, 0xb4, 0x70, 0x6d, 0xbe, 0x1d, 0x44, 0x23, 0x3f,
  0x38, 0x42, 0x96, 0xbe, 0x4c, 0xfc, 0xaf, 0x3e, 0x58, 0x73, 0x21, 0xbf,
  0x47, 0x4c, 0xb4, 0xbd, 0x46, 0xda, 0xaf, 0xbd, 0x53, 0xdd, 0x9b, 0x3e,
  0xf6, 0x72, 0xb1, 0xbe, 0x5b, 0x95, 0xdc, 0x3d, 0x1d, 0x82, 0xc1, 0x3e,
  0x24, 0xa1, 0xb6, 0x3e, 0x6c, 0x6c, 0xfa, 0x3d, 0xe4, 0x39, 0x0b, 0x3f,
  0xdc, 0x34, 0x06, 0x3f, 0x8c, 0x53, 0x9d, 0xbd, 0xdc, 0x18, 0x8e, 0xbe,
  0xc2, 0x13, 0x85, 0xbe, 0x47, 0x86, 0xc3, 0xbe, 0x5c, 0xe3, 0x02, 0x3f,
  0xac, 0x71, 0xbb, 0x3e, 0xd7, 0xce, 0xbf, 0xbc, 0xad, 0xf8, 0x97, 0x3e,
  0xb3, 0x98, 0xdb, 0xbe, 0x98, 0xdc, 0xa8, 0xbc, 0x70, 0x8c, 0x5a, 0x3e,
  0x9a, 0xf5, 0x54, 0x3d, 0x31, 0x0e, 0xa9, 0x3e, 0xc2, 0xa8, 0x59, 0xbe,
  0x2c, 0x13, 0xba, 0xbd, 0x89, 0xbb, 0xa4, 0xbd, 0xd0, 0x70, 0x30, 0x3d,
  0xd5, 0xcb, 0x96, 0x3e, 0x65, 0x59, 0x51, 0x3e, 0xcb, 0x28, 0xf0, 0xbe,
  0xa9, 0x63, 0xd7, 0x3e, 0x55, 0x5c, 0x26, 0x3e, 0x44, 0x1e, 0x4d, 0x3e,
  0xb1, 0xfd, 0x7f, 0xbd, 0x55, 0xd1, 0x88, 0xbe, 0xb4, 0xf8, 0x1f, 0x3e,
  0xd8, 0x13, 0x38, 0xbe, 0xc5, 0xb4, 0xc4, 0x3d, 0x87, 0x69, 0x3d, 0x3d,
  0x3a, 0xdd, 0xa9, 0x3e, 0x14, 0xf7, 0xc7, 0xbe, 0xd5, 0xe1, 0x76, 0xbe,
  0x93, 0x6c, 0xcc, 0x3e, 0xda, 0xd0, 0x2e, 0xbe, 0x80, 0xce, 0x06, 0x3e,
  0xc6, 0x7f, 0x80, 0xbe, 0x41, 0x8b, 0xf9, 0x3d, 0x7f, 0x58, 0x27, 0x3e,
  0x7e, 0xed, 0xa4, 0x3e, 0xd3, 0x23, 0x6e, 0x3e, 0x71, 0x07, 0x93, 0x3c,
  0x5a, 0xd0, 0x06, 0x3f, 0x73, 0xae, 0x61, 0xbe, 0x9a, 0x29, 0x50, 0x3e,
  0x0c, 0xee, 0x1c, 0xbf, 0x8c, 0x1b, 0x84, 0x3e, 0x19, 0xb7, 0x21, 0xbf,
  0x2f, 0xc7, 0x72, 0x3e, 0x6a, 0x0c, 0xd8, 0xbe, 0xca, 0x75, 0xbb, 0xbe,
  0xc4, 0xe8, 0xf1, 0xbe, 0xe2, 0xf9, 0xff, 0xff, 0x04, 0x00, 0x00, 0x00,
  0x40, 0x00, 0x00, 0x00, 0x8b, 0xaa, 0x0b, 0x3d, 0xd8, 0x2f, 0x69, 0x3e,
  0x96, 0x4f, 0x53, 0x3e, 0x01, 0xa2, 0xef, 0xbd, 0xa4, 0x3b, 0xfc, 0x3d,
  0xe5, 0x5e, 0x38, 0x3e, 0xb0, 0xa6, 0x29, 0x3e, 0x13, 0xaf, 0x6f, 0xbb,
  0x45, 0xc7, 0x21, 0x3e, 0x74, 0x65, 0x28, 0x3e, 0xc3, 0x09, 0x45, 0xbd,
  0xe8, 0x06, 0x57, 0x3e, 0x3e, 0xf7, 0x88, 0x3e, 0x7a, 0xb3, 0xe6, 0x3d,
  0xf1, 0x3a, 0x17, 0x3d, 0xd1, 0x52, 0x26, 0x3e, 0x2e, 0xfa, 0xff, 0xff,
  0x04, 0x00, 0x00, 0x00, 0x40, 0x00, 0x00, 0x00, 0xcb, 0x26, 0xb7, 0x3d,
  0xa8, 0x7f, 0xf3, 0x3d, 0x78, 0x34, 0x04, 0x3e, 0xa8, 0x7a, 0x30, 0x3e,
  0x57, 0x69, 0x1b, 0x3e, 0xce, 0xeb, 0x1c, 0x3d, 0xb9, 0xa5, 0xee, 0x3d,
  0xeb, 0xde, 0xf7, 0xbc, 0x37, 0x48, 0x68, 0x3e, 0xea, 0xd2, 0x41, 0x3b,
  0x3b, 0x10, 0x06, 0x3d, 0x82, 0xb5, 0x1b, 0xbd, 0xac, 0xa6, 0x3a, 0x3e,
  0x00, 0x09, 0x43, 0xbd, 0x4f, 0xc4, 0x1a, 0x3e, 0xb3, 0x9e, 0xcd, 0x3d,
  0x7a, 0xfa, 0xff, 0xff, 0x04, 0x00, 0x00, 0x00, 0x0c, 0x00, 0x00, 0x00,
  0xa1, 0xf2, 0x7e, 0x3d, 0x1b, 0x48, 0xbb, 0x3c, 0x09, 0xd1, 0x98, 0xbd,
  0x92, 0xfa, 0xff, 0xff, 0x04, 0x00, 0x00, 0x00, 0x00, 0x04, 0x00, 0x00,
  0x00, 0x06, 0x9d, 0x3d, 0x10, 0xdf, 0xbe, 0x3e, 0x3e, 0xb2, 0xba, 0x3e,
  0x0f, 0x61, 0x05, 0xbe, 0x9d, 0x6d, 0x5c, 0x3e, 0xc1, 0xdf, 0x23, 0xbe,
  0x5e, 0xb1, 0x1e, 0x3d, 0xc7, 0xf7, 0xcd, 0x3e, 0x54, 0x59, 0xbc, 0x3e,
  0xc4, 0x7e, 0xb0, 0x3e, 0x78, 0xe6, 0x95, 0x3e, 0x3a, 0xab, 0xcb, 0xbe,
  0x9f, 0x6b, 0xf8, 0xba, 0x53, 0x1e, 0xe9, 0xbd, 0x5f, 0x62, 0xf3, 0x3e,
  0xd2, 0x4f, 0xdc, 0xbe, 0x46, 0xff, 0xd8, 0x3e, 0x40, 0x3e, 0xc2, 0xbe,
  0x8e, 0x68, 0x40, 0xbe, 0xc9, 0xd9, 0x24, 0x3e, 0x75, 0xca, 0x8b, 0xbe,
  0x9e, 0x35, 0x9b, 0x3e, 0x97, 0x5b, 0x7c, 0xbe, 0xb6, 0xef, 0x26, 0xbd,
  0x58, 0x1a, 0xf6, 0xbd, 0xf1, 0x93, 0xa0, 0xbe, 0x40, 0xb7, 0xc5, 0x3e,
  0xe6, 0xe6, 0x47, 0xbe, 0x51, 0x01, 0xc8, 0xbe, 0xb2, 0x39, 0x38, 0x3e,
  0xe8, 0x8d, 0xa6, 0x3e, 0xa9, 0x58, 0x78, 0x3e, 0x60, 0x55, 0x0a, 0x3d,
  0x75, 0xd8, 0x06, 0x3f, 0xc4, 0xb6, 0x96, 0x3b, 0x22, 0x2f, 0x9f, 0xbe,
  0x5b, 0x2d, 0x84, 0xbc, 0x9e, 0x29, 0xa9, 0x3e, 0xe6, 0x29, 0xe8, 0x3d,
  0x06, 0xe9, 0x32, 0xbe, 0xab, 0x8a, 0x67, 0x3d, 0x9d, 0xcf, 0x89, 0x3e,
  0xef, 0x9d, 0xa6, 0xbc, 0x3a, 0x4d, 0x04, 0x3f, 0x74, 0x8b, 0x78, 0x3c,
  0x2a, 0xb9, 0x30, 0x3e, 0xb5, 0x72, 0xf1, 0x3d, 0xae, 0x18, 0xa2, 0xbd,
  0x54, 0x78, 0x34, 0x3e, 0xe7, 0x4c, 0x03, 0x3f, 0x8c, 0x6c, 0x6d, 0x3e,
  0xe4, 0x76, 0x16, 0xbe, 0x5a, 0x63, 0x88, 0xbe, 0xfa, 0xd4, 0x2e, 0x3e,
  0xe2, 0x16, 0xab, 0x3e, 0xca, 0xff, 0x61, 0xbe, 0x73, 0xfe, 0xe2, 0xbe,
  0xfc, 0x53, 0x5b, 0xbe, 0xdd, 0x77, 0x81, 0x3e, 0xdb, 0x63, 0xee, 0x3e,
  0xbb, 0xd3, 0x96, 0x3e, 0x37, 0x71, 0x56, 0xbe, 0xfb, 0xb0, 0xc4, 0x3d,
  0xf5, 0x62, 0xc3, 0xbe, 0xdc, 0x55, 0x42, 0xbe, 0x56, 0xb4, 0xf8, 0x3d,
  0xfc, 0x94, 0x10, 0x3f, 0x4b, 0x91, 0x9f, 0x3e, 0x96, 0x14, 0xc2, 0x3d,
  0xa0, 0x0c, 0x97, 0x3e, 0x3e, 0x66, 0xfd, 0x3e, 0x2d, 0x57, 0xe9, 0x3e,
  0x96, 0x80, 0x54, 0xbe, 0xe7, 0x78, 0x16, 0x3f, 0x03, 0xf7, 0x7e, 0xbe,
  0x57, 0x22, 0x62, 0xbe, 0xa3, 0x8b, 0x1f, 0x3e, 0x7a, 0x72, 0x83, 0x3e,
  0x01, 0x60, 0x11, 0xbd, 0x70, 0x81, 0x69, 0xbe, 0xc3, 0xf7, 0xd3, 0xbe,
  0x31, 0x93, 0x94, 0x3d, 0xb8, 0x91, 0x1e, 0xbd, 0x31, 0x62, 0xb2, 0xbd,
  0xcd, 0xb1, 0x45, 0x3e, 0xc4, 0x44, 0xb0, 0xbd, 0xb3, 0xf1, 0xdb, 0x3d,
  0xe5, 0x49, 0x05, 0xbf, 0x20, 0x7e, 0xf1, 0x3e, 0xd0, 0x0f, 0xa5, 0x3e,
  0x9a, 0xa1, 0x8f, 0x3e, 0x1c, 0xee, 0x7f, 0xbe, 0x2f, 0x39, 0x13, 0x3e,
  0x0f, 0x54, 0xae, 0x3e, 0x44, 0x64, 0xcb, 0xbe, 0x1d, 0xdb, 0x9f, 0x3d,
  0x43, 0x30, 0x3a, 0x3e, 0x20, 0x98, 0xf7, 0xbd, 0x53, 0x27, 0x82, 0xbe,
  0xe1, 0xe3, 0xcd, 0x3d, 0x44, 0xba, 0x90, 0x3e, 0x0d, 0x30, 0x95, 0x3e,
  0x4a, 0x4f, 0x81, 0xbe, 0x12, 0x81, 0xb0, 0xbe, 0x7e, 0xb4, 0x0b, 0xbe,
  0x46, 0x44, 0xdb, 0xbe, 0xd9, 0x2a, 0x40, 0xbe, 0xc3, 0x45, 0x07, 0x3f,
  0x8f, 0x41, 0x1e, 0x3f, 0x0b, 0x7d, 0xed, 0x3e, 0xbc, 0xbe, 0x9a, 0x3e,
  0x12, 0x82, 0x03, 0xbf, 0xa1, 0x5a, 0x75, 0x3d, 0x63, 0x5a, 0xdd, 0x3c,
  0x46, 0x60, 0xb6, 0x3e, 0x02, 0xdc, 0x35, 0xbd, 0xdc, 0xb3, 0xe7, 0xbd,
  0xd9, 0xbb, 0xcb, 0xbe, 0xdf, 0x8e, 0x7e, 0xbc, 0x7a, 0xcd, 0xd6, 0xbd,
  0xdd, 0xe4, 0x15, 0xbf, 0xf5, 0x99, 0x96, 0x3d, 0xa6, 0x6d, 0x03, 0x3f,
  0x08, 0xa2, 0x90, 0x3d, 0xbf, 0x91, 0xb1, 0x3c, 0xef, 0xa6, 0x14, 0xbe,
  0x8b, 0xe3, 0x51, 0x3e, 0xd4, 0x16, 0xb9, 0xbd, 0xe3, 0xab, 0x83, 0xbe,
  0x01, 0x4c, 0xa3, 0xbe, 0x63, 0x0d, 0x75, 0x3e, 0x43, 0xa7, 0x3d, 0x3e,
  0x5d, 0x73, 0xd6, 0x3e, 0xd6, 0xba, 0xa5, 0xbc, 0xba, 0x6a, 0x5a, 0x3e,
  0x17, 0x7b, 0xdf, 0x3e, 0xfc, 0x1e, 0xaf, 0x3e, 0x84, 0x4d, 0x25, 0x3e,
  0xd1, 0xc2, 0x97, 0xbe, 0xdc, 0x0e, 0xcf, 0xbe, 0x98, 0x13, 0xa0, 0x3e,
  0x96, 0x15, 0xbd, 0x3e, 0x71, 0xa5, 0x48, 0xbe, 0x16, 0x6f, 0x05, 0xbd,
  0xec, 0x30, 0x5e, 0x3e, 0xf4, 0x45, 0x56, 0xbe, 0x15, 0x3a, 0x13, 0x3f,
  0xef, 0xc1, 0xf2, 0x3c, 0x9d, 0x4c, 0xc6, 0x3e, 0x4c, 0xb5, 0x9f, 0x3d,
  0x70, 0x1a, 0x93, 0xbe, 0xf9, 0x58, 0xc9, 0x3e, 0xbd, 0x28, 0xef, 0x3e,
  0xd6, 0xb9, 0xc7, 0x3e, 0x56, 0xae, 0xbf, 0x3c, 0x13, 0xee, 0xdf, 0x3d,
  0xf9, 0xfe, 0x5b, 0xbc, 0x0e, 0x6d, 0xa0, 0xbe, 0xe3, 0x2f, 0x1b, 0xbc,
  0x37, 0x7b, 0xab, 0x3e, 0x2a, 0x74, 0x2c, 0x3e, 0xe4, 0x9a, 0x4a, 0x3e,
  0xad, 0x90, 0x4b, 0x3e, 0xe2, 0x49, 0x5e, 0xbe, 0x80, 0x0a, 0xd9, 0xbe,
  0x26, 0x6a, 0xbf, 0x3e, 0x51, 0xdf, 0x47, 0xbe, 0x84, 0x48, 0xda, 0x3e,
  0xbe, 0xa8, 0x2a, 0xbd, 0x4d, 0xa5, 0xc9, 0x3a, 0xb4, 0x00, 0xfd, 0xbd,
  0xf5, 0xea, 0x93, 0x3e, 0xba, 0x35, 0x0a, 0xbe, 0xec, 0xef, 0xe4, 0xbe,
  0xde, 0x0f, 0xd5, 0x3e, 0xe6, 0x9b, 0x9f, 0x3e, 0x15, 0x93, 0xac, 0x3e,
  0x3c, 0x58, 0x5a, 0x3e, 0x70, 0x53, 0xa8, 0xbd, 0xa2, 0x15, 0x87, 0x3d,
  0xf8, 0x4d, 0x9d, 0xbd, 0xa4, 0x6e, 0x86, 0xbe, 0x55, 0x1c, 0x65, 0x3d,
  0xd6, 0xad, 0x28, 0x3e, 0x63, 0x2a, 0xf1, 0xbe, 0x30, 0xd1, 0x22, 0x3d,
  0x08, 0x63, 0x6a, 0x3e, 0xd7, 0x93, 0x6a, 0xbd, 0xfc, 0x12, 0x6d, 0xbe,
  0x63, 0x7f, 0x43, 0xbd, 0x6f, 0x7f, 0xb5, 0x3e, 0x9d, 0xee, 0xf4, 0x3e,
  0x7f, 0xca, 0x1d, 0xbf, 0x08, 0xc2, 0x01, 0xbe, 0xbd, 0x94, 0xf6, 0x3d,
  0x72, 0xfe, 0x06, 0xbd, 0x81, 0x51, 0xe6, 0x3d, 0x04, 0xa9, 0x15, 0x3d,
  0x88, 0xfa, 0x9f, 0x3e, 0xf9, 0x37, 0x5c, 0x3e, 0xc0, 0x68, 0x29, 0x3f,
  0x96, 0xac, 0x31, 0x3e, 0xb0, 0x12, 0xaf, 0xba, 0xc3, 0xdf, 0xff, 0xbd,
  0x9a, 0xe8, 0x71, 0xbe, 0xb4, 0x3f, 0x92, 0xbd, 0x45, 0x56, 0x0b, 0x3e,
  0xad, 0xd7, 0x08, 0x3e, 0xba, 0x41, 0xb9, 0x3e, 0xee, 0xf0, 0x95, 0x3c,
  0x3e, 0x38, 0x58, 0xbe, 0x6d, 0x7c, 0x80, 0xbd, 0x57, 0x0b, 0x29, 0xbe,
  0xf2, 0xc7, 0xd0, 0xbc, 0xa0, 0xf5, 0xbb, 0xbe, 0xbf, 0x5e, 0xb9, 0xbe,
  0x93, 0xc7, 0xde, 0xbc, 0x2b, 0xb6, 0x96, 0xbe, 0x2e, 0x63, 0x87, 0xbe,
  0x82, 0xec, 0x1a, 0x3c, 0xa5, 0xb6, 0x74, 0x3e, 0x83, 0xa5, 0x3f, 0xbe,
  0x8f, 0x84, 0xb5, 0x3e, 0xf5, 0x85, 0xc1, 0xbe, 0xc0, 0x17, 0x1b, 0x3e,
  0x4d, 0xe6, 0x8c, 0x3e, 0xda, 0xf9, 0x23, 0x3e, 0xd2, 0x18, 0x9c, 0xbe,
  0x39, 0x7b, 0xe9, 0xbe, 0xf1, 0x82, 0xdd, 0x3e, 0xb2, 0xf3, 0x00, 0x3e,
  0x23, 0x63, 0xf1, 0xbd, 0x3e, 0x44, 0xe7, 0xbe, 0x28, 0x14, 0xad, 0xbe,
  0xa9, 0x1b, 0x67, 0x3e, 0x2d, 0x42, 0xea, 0x3e, 0xd3, 0x4e, 0x24, 0x3f,
  0x47, 0xa3, 0x8b, 0xbe, 0x0e, 0xe2, 0xef, 0x3e, 0x4d, 0x30, 0xb0, 0x3e,
  0xce, 0xe3, 0x2d, 0xbd, 0xfb, 0x1d, 0xe0, 0xbd, 0x9e, 0x92, 0x9c, 0x3e,
  0x2f, 0x3e, 0x6a, 0x3e, 0x31, 0x1c, 0xdf, 0xbe, 0x3a, 0xdf, 0xb5, 0x3e,
  0x78, 0x5a, 0xa9, 0xbe, 0x06, 0x14, 0xbe, 0x3e, 0xcd, 0x97, 0x16, 0xbf,
  0xad, 0x46, 0xef, 0xbe, 0xc7, 0xa0, 0x7b, 0xbe, 0x6b, 0x8f, 0x6b, 0xbe,
  0x68, 0x37, 0x14, 0x3e, 0x4d, 0xf3, 0x92, 0xbe, 0x7f, 0x6d, 0x8d, 0xbc,
  0x4a, 0x2e, 0x30, 0x3f, 0x9e, 0xfe, 0xff, 0xff, 0x04, 0x00, 0x00, 0x00,
  0xc0, 0x00, 0x00, 0x00, 0x5a, 0xac, 0x32, 0xbe, 0x9f, 0xff, 0x81, 0xbe,
  0xca, 0x27, 0xb8, 0x3e, 0x40, 0x87, 0x27, 0x3e, 0x1f, 0xdc, 0x18, 0x3e,
  0x8e, 0xae, 0xdd, 0xbe, 0xbb, 0x33, 0x32, 0x3f, 0xd0, 0x8a, 0xf1, 0xbe,
  0x73, 0x9c, 0x8d, 0xbe, 0x6c, 0x26, 0xcb, 0xbe, 0xf1, 0x3e, 0x57, 0x3e,
  0x1b, 0x3b, 0xea, 0xbe, 0xdb, 0x69, 0x21, 0xbf, 0xbc, 0x66, 0x40, 0xbd,
  0xc5, 0xd7, 0xc6, 0x3d, 0x96, 0x97, 0x97, 0xbe, 0xf9, 0xbf, 0x24, 0x3f,
  0x82, 0xc6, 0xd8, 0xbe, 0xa4, 0xc4, 0x2e, 0xbe, 0x59, 0x35, 0x3c, 0xbf,
  0xec, 0x3e, 0x37, 0x3f, 0x25, 0x38, 0x00, 0x3f, 0x44, 0x32, 0xf1, 0xbe,
  0x84, 0x57, 0xf0, 0xbe, 0xc9, 0x54, 0x04, 0x3f, 0xda, 0x89, 0x0d, 0x3f,
  0x2d, 0x6f, 0xec, 0xbe, 0x9e, 0x9f, 0x5c, 0xbe, 0x81, 0x77, 0xa0, 0x3d,
  0x5e, 0x2b, 0xa1, 0xbe, 0x60, 0x36, 0x94, 0xbe, 0xee, 0x31, 0x19, 0xbf,
  0x88, 0x05, 0x15, 0xbe, 0x06, 0xe1, 0x13, 0x3f, 0x9c, 0x31, 0xd1, 0xbe,
  0xc9, 0xa1, 0xe5, 0xbe, 0x17, 0x55, 0xdf, 0xbe, 0xe4, 0x32, 0xf2, 0xbe,
  0x50, 0x1a, 0xb3, 0xbd, 0x61, 0x1c, 0x44, 0x3e, 0x46, 0x3e, 0x14, 0xbe,
  0x9e, 0x0f, 0xd9, 0x3e, 0xd6, 0xeb, 0x12, 0x3f, 0x2b, 0xeb, 0xe1, 0x3e,
  0xc8, 0x8c, 0x99, 0xbe, 0xbc, 0xe5, 0xa7, 0x3e, 0x5a, 0x28, 0x21, 0x3a,
  0x6c, 0x18, 0xda, 0x3d, 0x64, 0xfa, 0xff, 0xff, 0x68, 0xfa, 0xff, 0xff,
  0x0f, 0x00, 0x00, 0x00, 0x4d, 0x4c, 0x49, 0x52, 0x20, 0x43, 0x6f, 0x6e,
  0x76, 0x65, 0x72, 0x74, 0x65, 0x64, 0x2e, 0x00, 0x01, 0x00, 0x00, 0x00,
  0x14, 0x00, 0x00, 0x00, 0x00, 0x00, 0x0e, 0x00, 0x18, 0x00, 0x14, 0x00,
  0x10, 0x00, 0x0c, 0x00, 0x08, 0x00, 0x04, 0x00, 0x0e, 0x00, 0x00, 0x00,
  0x14, 0x00, 0x00, 0x00, 0x1c, 0x00, 0x00, 0x00, 0x24, 0x01, 0x00, 0x00,
  0x28, 0x01, 0x00, 0x00, 0x2c, 0x01, 0x00, 0x00, 0x04, 0x00, 0x00, 0x00,
  0x6d, 0x61, 0x69, 0x6e, 0x00, 0x00, 0x00, 0x00, 0x04, 0x00, 0x00, 0x00,
  0xcc, 0x00, 0x00, 0x00, 0x84, 0x00, 0x00, 0x00, 0x50, 0x00, 0x00, 0x00,
  0x14, 0x00, 0x00, 0x00, 0x00, 0x00, 0x0e, 0x00, 0x1a, 0x00, 0x14, 0x00,
  0x10, 0x00, 0x0c, 0x00, 0x0b, 0x00, 0x04, 0x00, 0x0e, 0x00, 0x00, 0x00,
  0x1c, 0x00, 0x00, 0x00, 0x00, 0x00, 0x00, 0x09, 0x1c, 0x00, 0x00, 0x00,
  0x20, 0x00, 0x00, 0x00, 0x01, 0x00, 0x00, 0x00, 0x00, 0x00, 0x06, 0x00,
  0x08, 0x00, 0x04, 0x00, 0x06, 0x00, 0x00, 0x00, 0x00, 0x00, 0x80, 0x3f,
  0x01, 0x00, 0x00, 0x00, 0x0a, 0x00, 0x00, 0x00, 0x01, 0x00, 0x00, 0x00,
  0x09, 0x00, 0x00, 0x00, 0x9a, 0xff, 0xff, 0xff, 0x10, 0x00, 0x00, 0x00,
  0x00, 0x00, 0x00, 0x08, 0x0c, 0x00, 0x00, 0x00, 0x10, 0x00, 0x00, 0x00,
  0x2c, 0xfb, 0xff, 0xff, 0x01, 0x00, 0x00, 0x00, 0x09, 0x00, 0x00, 0x00,
  0x03, 0x00, 0x00, 0x00, 0x08, 0x00, 0x00, 0x00, 0x01, 0x00, 0x00, 0x00,
  0x03, 0x00, 0x00, 0x00, 0xca, 0xff, 0xff, 0xff, 0x10, 0x00, 0x00, 0x00,
  0x00, 0x00, 0x00, 0x08, 0x10, 0x00, 0x00, 0x00, 0x14, 0x00, 0x00, 0x00,
  0xba, 0xff, 0xff, 0xff, 0x00, 0x00, 0x00, 0x01, 0x01, 0x00, 0x00, 0x00,
  0x08, 0x00, 0x00, 0x00, 0x03, 0x00, 0x00, 0x00, 0x07, 0x00, 0x00, 0x00,
  0x02, 0x00, 0x00, 0x00, 0x04, 0x00, 0x00, 0x00, 0x00, 0x00, 0x0e, 0x00,
  0x16, 0x00, 0x00, 0x00, 0x10, 0x00, 0x0c, 0x00, 0x0b, 0x00, 0x04, 0x00,
  0x0e, 0x00, 0x00, 0x00, 0x18, 0x00, 0x00, 0x00, 0x00, 0x00, 0x00, 0x08,
  0x18, 0x00, 0x00, 0x00, 0x1c, 0x00, 0x00, 0x00, 0x00, 0x00, 0x06, 0x00,
  0x08, 0x00, 0x07, 0x00, 0x06, 0x00, 0x00, 0x00, 0x00, 0x00, 0x00, 0x01,
  0x01, 0x00, 0x00, 0x00, 0x07, 0x00, 0x00, 0x00, 0x03, 0x00, 0x00, 0x00,
  0x00, 0x00, 0x00, 0x00, 0x06, 0x00, 0x00, 0x00, 0x05, 0x00, 0x00, 0x00,
  0x01, 0x00, 0x00, 0x00, 0x0a, 0x00, 0x00, 0x00, 0x01, 0x00, 0x00, 0x00,
  0x00, 0x00, 0x00, 0x00, 0x0b, 0x00, 0x00, 0x00, 0xfc, 0x03, 0x00, 0x00,
  0xa4, 0x03, 0x00, 0x00, 0x4c, 0x03, 0x00, 0x00, 0x10, 0x03, 0x00, 0x00,
  0xb4, 0x02, 0x00, 0x00, 0x5c, 0x02, 0x00, 0x00, 0x10, 0x02, 0x00, 0x00,
  0x7c, 0x01, 0x00, 0x00, 0xe0, 0x00, 0x00, 0x00, 0x60, 0x00, 0x00, 0x00,
  0x04, 0x00, 0x00, 0x00, 0x46, 0xfc, 0xff, 0xff, 0x00, 0x00, 0x00, 0x01,
  0x14, 0x00, 0x00, 0x00, 0x1c, 0x00, 0x00, 0x00, 0x1c, 0x00, 0x00, 0x00,
  0x0b, 0x00, 0x00, 0x00, 0x34, 0x00, 0x00, 0x00, 0x02, 0x00, 0x00, 0x00,
  0xff, 0xff, 0xff, 0xff, 0x03, 0x00, 0x00, 0x00, 0x30, 0xfc, 0xff, 0xff,
  0x1b, 0x00, 0x00, 0x00, 0x53, 0x74, 0x61, 0x74, 0x65, 0x66, 0x75, 0x6c,
  0x50, 0x61, 0x72, 0x74, 0x69, 0x74, 0x69, 0x6f, 0x6e, 0x65, 0x64, 0x43,
  0x61, 0x6c, 0x6c, 0x5f, 0x31, 0x3a, 0x30, 0x00, 0x02, 0x00, 0x00, 0x00,
  0x01, 0x00, 0x00, 0x00, 0x03, 0x00, 0x00, 0x00, 0x9e, 0xfc, 0xff, 0xff,
  0x00, 0x00, 0x00, 0x01, 0x14, 0x00, 0x00, 0x00, 0x1c, 0x00, 0x00, 0x00,
  0x1c, 0x00, 0x00, 0x00, 0x0a, 0x00, 0x00, 0x00, 0x58, 0x00, 0x00, 0x00,
  0x02, 0x00, 0x00, 0x00, 0xff, 0xff, 0xff, 0xff, 0x03, 0x00, 0x00, 0x00,
  0x88, 0xfc, 0xff, 0xff, 0x3c, 0x00, 0x00, 0x00, 0x73, 0x65, 0x71, 0x75,
  0x65, 0x6e, 0x74, 0x69, 0x61, 0x6c, 0x5f, 0x31, 0x2f, 0x64, 0x65, 0x6e,
  0x73, 0x65, 0x5f, 0x32, 0x5f, 0x31, 0x2f, 0x4d, 0x61, 0x74, 0x4d, 0x75,
  0x6c, 0x3b, 0x73, 0x65, 0x71, 0x75, 0x65, 0x6e, 0x74, 0x69, 0x61, 0x6c,
  0x5f, 0x31, 0x2f, 0x64, 0x65, 0x6e, 0x73, 0x65, 0x5f, 0x32, 0x5f, 0x31,
  0x2f, 0x42, 0x69, 0x61, 0x73, 0x41, 0x64, 0x64, 0x00, 0x00, 0x00, 0x00,
  0x02, 0x00, 0x00, 0x00, 0x01, 0x00, 0x00, 0x00, 0x03, 0x00, 0x00, 0x00,
  0x1a, 0xfd, 0xff, 0xff, 0x00, 0x00, 0x00, 0x01, 0x14, 0x00, 0x00, 0x00,
  0x1c, 0x00, 0x00, 0x00, 0x1c, 0x00, 0x00, 0x00, 0x09, 0x00, 0x00, 0x00,
  0x74, 0x00, 0x00, 0x00, 0x02, 0x00, 0x00, 0x00, 0xff, 0xff, 0xff, 0xff,
  0x10, 0x00, 0x00, 0x00, 0x04, 0xfd, 0xff, 0xff, 0x58, 0x00, 0x00, 0x00,
  0x73, 0x65, 0x71, 0x75, 0x65, 0x6e, 0x74, 0x69, 0x61, 0x6c, 0x5f, 0x31,
  0x2f, 0x64, 0x65, 0x6e, 0x73, 0x65, 0x5f, 0x31, 0x5f, 0x32, 0x2f, 0x4d,
  0x61, 0x74, 0x4d, 0x75, 0x6c, 0x3b, 0x73, 0x65, 0x71, 0x75, 0x65, 0x6e,
  0x74, 0x69, 0x61, 0x6c, 0x5f, 0x31, 0x2f, 0x64, 0x65, 0x6e, 0x73, 0x65,
  0x5f, 0x31, 0x5f, 0x32, 0x2f, 0x52, 0x65, 0x6c, 0x75, 0x3b, 0x73, 0x65,
  0x71, 0x75, 0x65, 0x6e, 0x74, 0x69, 0x61, 0x6c, 0x5f, 0x31, 0x2f, 0x64,
  0x65, 0x6e, 0x73, 0x65, 0x5f, 0x31, 0x5f, 0x32, 0x2f, 0x42, 0x69, 0x61,
  0x73, 0x41, 0x64, 0x64, 0x00, 0x00, 0x00, 0x00, 0x02, 0x00, 0x00, 0x00,
  0x01, 0x00, 0x00, 0x00, 0x10, 0x00, 0x00, 0x00, 0xb2, 0xfd, 0xff, 0xff,
  0x00, 0x00, 0x00, 0x01, 0x14, 0x00, 0x00, 0x00, 0x1c, 0x00, 0x00, 0x00,
  0x1c, 0x00, 0x00, 0x00, 0x08, 0x00, 0x00, 0x00, 0x6c, 0x00, 0x00, 0x00,
  0x02, 0x00, 0x00, 0x00, 0xff, 0xff, 0xff, 0xff, 0x10, 0x00, 0x00, 0x00,
  0x9c, 0xfd, 0xff, 0xff, 0x52, 0x00, 0x00, 0x00, 0x73, 0x65, 0x71, 0x75,
  0x65, 0x6e, 0x74, 0x69, 0x61, 0x6c, 0x5f, 0x31, 0x2f, 0x64, 0x65, 0x6e,
  0x73, 0x65, 0x5f, 0x31, 0x2f, 0x4d, 0x61, 0x74, 0x4d, 0x75, 0x6c, 0x3b,
  0x73, 0x65, 0x71, 0x75, 0x65, 0x6e, 0x74, 0x69, 0x61, 0x6c, 0x5f, 0x31,
  0x2f, 0x64, 0x65, 0x6e, 0x73, 0x65, 0x5f, 0x31, 0x2f, 0x52, 0x65, 0x6c,
  0x75, 0x3b, 0x73, 0x65, 0x71, 0x75, 0x65, 0x6e, 0x74, 0x69, 0x61, 0x6c,
  0x5f, 0x31, 0x2f, 0x64, 0x65, 0x6e, 0x73, 0x65, 0x5f, 0x31, 0x2f, 0x42,
  0x69, 0x61, 0x73, 0x41, 0x64, 0x64, 0x00, 0x00, 0x02, 0x00, 0x00, 0x00,
  0x01, 0x00, 0x00, 0x00, 0x10, 0x00, 0x00, 0x00, 0x96, 0xfe, 0xff, 0xff,
  0x00, 0x00, 0x00, 0x01, 0x10, 0x00, 0x00, 0x00, 0x10, 0x00, 0x00, 0x00,
  0x07, 0x00, 0x00, 0x00, 0x28, 0x00, 0x00, 0x00, 0x1c, 0xfe, 0xff, 0xff,
  0x1b, 0x00, 0x00, 0x00, 0x73, 0x65, 0x71, 0x75, 0x65, 0x6e, 0x74, 0x69,
  0x61, 0x6c, 0x5f, 0x31, 0x2f, 0x64, 0x65, 0x6e, 0x73, 0x65, 0x5f, 0x31,
  0x2f, 0x4d, 0x61, 0x74, 0x4d, 0x75, 0x6c, 0x00, 0x02, 0x00, 0x00, 0x00,
  0x10, 0x00, 0x00, 0x00, 0x0d, 0x00, 0x00, 0x00, 0xde, 0xfe, 0xff, 0xff,
  0x00, 0x00, 0x00, 0x01, 0x10, 0x00, 0x00, 0x00, 0x10, 0x00, 0x00, 0x00,
  0x06, 0x00, 0x00, 0x00, 0x38, 0x00, 0x00, 0x00, 0x64, 0xfe, 0xff, 0xff,
  0x2b, 0x00, 0x00, 0x00, 0x73, 0x65, 0x71, 0x75, 0x65, 0x6e, 0x74, 0x69,
  0x61, 0x6c, 0x5f, 0x31, 0x2f, 0x64, 0x65, 0x6e, 0x73, 0x65, 0x5f, 0x31,
  0x2f, 0x42, 0x69, 0x61, 0x73, 0x41, 0x64, 0x64, 0x2f, 0x52, 0x65, 0x61,
  0x64, 0x56, 0x61, 0x72, 0x69, 0x61, 0x62, 0x6c, 0x65, 0x4f, 0x70, 0x00,
  0x01, 0x00, 0x00, 0x00, 0x10, 0x00, 0x00, 0x00, 0x32, 0xff, 0xff, 0xff,
  0x00, 0x00, 0x00, 0x01, 0x10, 0x00, 0x00, 0x00, 0x10, 0x00, 0x00, 0x00,
  0x05, 0x00, 0x00, 0x00, 0x3c, 0x00, 0x00, 0x00, 0xb8, 0xfe, 0xff, 0xff,
  0x2d, 0x00, 0x00, 0x00, 0x73, 0x65, 0x71, 0x75, 0x65, 0x6e, 0x74, 0x69,
  0x61, 0x6c, 0x5f, 0x31, 0x2f, 0x64, 0x65, 0x6e, 0x73, 0x65, 0x5f, 0x31,
  0x5f, 0x32, 0x2f, 0x42, 0x69, 0x61, 0x73, 0x41, 0x64, 0x64, 0x2f, 0x52,
  0x65, 0x61, 0x64, 0x56, 0x61, 0x72, 0x69, 0x61, 0x62, 0x6c, 0x65, 0x4f,
  0x70, 0x00, 0x00, 0x00, 0x01, 0x00, 0x00, 0x00, 0x10, 0x00, 0x00, 0x00,
  0x8a, 0xff, 0xff, 0xff, 0x00, 0x00, 0x00, 0x01, 0x10, 0x00, 0x00, 0x00,
  0x10, 0x00, 0x00, 0x00, 0x04, 0x00, 0x00, 0x00, 0x1c, 0x00, 0x00, 0x00,
  0x10, 0xff, 0xff, 0xff, 0x0f, 0x00, 0x00, 0x00, 0x61, 0x72, 0x69, 0x74,
  0x68, 0x2e, 0x63, 0x6f, 0x6e, 0x73, 0x74, 0x61, 0x6e, 0x74, 0x32, 0x00,
  0x01, 0x00, 0x00, 0x00, 0x03, 0x00, 0x00, 0x00, 0xc2, 0xff, 0xff, 0xff,
  0x00, 0x00, 0x00, 0x01, 0x10, 0x00, 0x00, 0x00, 0x10, 0x00, 0x00, 0x00,
  0x03, 0x00, 0x00, 0x00, 0x1c, 0x00, 0x00, 0x00, 0x48, 0xff, 0xff, 0xff,
  0x0f, 0x00, 0x00, 0x00, 0x61, 0x72, 0x69, 0x74, 0x68, 0x2e, 0x63, 0x6f,
  0x6e, 0x73, 0x74, 0x61, 0x6e, 0x74, 0x31, 0x00, 0x02, 0x00, 0x00, 0x00,
  0x10, 0x00, 0x00, 0x00, 0x10, 0x00, 0x00, 0x00, 0x00, 0x00, 0x16, 0x00,
  0x18, 0x00, 0x14, 0x00, 0x00, 0x00, 0x10, 0x00, 0x0c, 0x00, 0x08, 0x00,
  0x00, 0x00, 0x00, 0x00, 0x00, 0x00, 0x07, 0x00, 0x16, 0x00, 0x00, 0x00,
  0x00, 0x00, 0x00, 0x01, 0x10, 0x00, 0x00, 0x00, 0x10, 0x00, 0x00, 0x00,
  0x02, 0x00, 0x00, 0x00, 0x1c, 0x00, 0x00, 0x00, 0x9c, 0xff, 0xff, 0xff,
  0x0e, 0x00, 0x00, 0x00, 0x61, 0x72, 0x69, 0x74, 0x68, 0x2e, 0x63, 0x6f,
  0x6e, 0x73, 0x74, 0x61, 0x6e, 0x74, 0x00, 0x00, 0x02, 0x00, 0x00, 0x00,
  0x03, 0x00, 0x00, 0x00, 0x10, 0x00, 0x00, 0x00, 0x00, 0x00, 0x16, 0x00,
  0x1c, 0x00, 0x18, 0x00, 0x00, 0x00, 0x14, 0x00, 0x10, 0x00, 0x0c, 0x00,
  0x00, 0x00, 0x00, 0x00, 0x08, 0x00, 0x07, 0x00, 0x16, 0x00, 0x00, 0x00,
  0x00, 0x00, 0x00, 0x01, 0x14, 0x00, 0x00, 0x00, 0x20, 0x00, 0x00, 0x00,
  0x20, 0x00, 0x00, 0x00, 0x01, 0x00, 0x00, 0x00, 0x3c, 0x00, 0x00, 0x00,
  0x02, 0x00, 0x00, 0x00, 0xff, 0xff, 0xff, 0xff, 0x0d, 0x00, 0x00, 0x00,
  0x04, 0x00, 0x04, 0x00, 0x04, 0x00, 0x00, 0x00, 0x1e, 0x00, 0x00, 0x00,
  0x73, 0x65, 0x72, 0x76, 0x69, 0x6e, 0x67, 0x5f, 0x64, 0x65, 0x66, 0x61,
  0x75, 0x6c, 0x74, 0x5f, 0x6b, 0x65, 0x72, 0x61, 0x73, 0x5f, 0x74, 0x65,
  0x6e, 0x73, 0x6f, 0x72, 0x3a, 0x30, 0x00, 0x00, 0x02, 0x00, 0x00, 0x00,
  0x01, 0x00, 0x00, 0x00, 0x0d, 0x00, 0x00, 0x00, 0x02, 0x00, 0x00, 0x00,
  0x20, 0x00, 0x00, 0x00, 0x04, 0x00, 0x00, 0x00, 0xf4, 0xff, 0xff, 0xff,
  0x19, 0x00, 0x00, 0x00, 0x00, 0x00, 0x00, 0x19, 0x0c, 0x00, 0x0c, 0x00,
  0x0b, 0x00, 0x00, 0x00, 0x00, 0x00, 0x04, 0x00, 0x0c, 0x00, 0x00, 0x00,
  0x09, 0x00, 0x00, 0x00, 0x00, 0x00, 0x00, 0x09
};
unsigned int model_tflite_len = 4292;